#ifndef UUID140285649650544
#define UUID140285649650544

#include <EloquentTinyML.h>
#include <eloquent_tinyml/tensorflow.h>

#ifdef __has_attribute
#define HAVE_ATTRIBUTE(x) __has_attribute(x)
#else
#define HAVE_ATTRIBUTE(x) 0
#endif
#if HAVE_ATTRIBUTE(aligned) || (defined(__GNUC__) && !defined(__clang__))
#define DATA_ALIGN_ATTRIBUTE __attribute__((aligned(4)))
#else
#define DATA_ALIGN_ATTRIBUTE
#endif

#ifndef ARENA_SIZE
#define ARENA_SIZE 4096
#endif

/** model size = 3008 bytes **/
const unsigned char modelData[] DATA_ALIGN_ATTRIBUTE = { 0x1c, 0x00, 0x00, 0x00, 0x54, 0x46, 0x4c, 0x33, 0x14, 0x00, 0x20, 0x00, 0x1c, 0x00, 0x18, 0x00, 0x14, 0x00, 0x10, 0x00, 0x0c, 0x00, 0x00, 0x00, 0x08, 0x00, 0x04, 0x00, 0x14, 0x00, 0x00, 0x00, 0x1c, 0x00, 0x00, 0x00, 0x88, 0x00, 0x00, 0x00, 0xe0, 0x00, 0x00, 0x00, 0x90, 0x05, 0x00, 0x00, 0xa0, 0x05, 0x00, 0x00, 0x5c, 0x0b, 0x00, 0x00, 0x03, 0x00, 0x00, 0x00, 0x01, 0x00, 0x00, 0x00, 0x04, 0x00, 0x00, 0x00, 0x22, 0xfa, 0xff, 0xff, 0x0c, 0x00, 0x00, 0x00, 0x1c, 0x00, 0x00, 0x00, 0x38, 0x00, 0x00, 0x00, 0x0f, 0x00, 0x00, 0x00, 0x73, 0x65, 0x72, 0x76, 0x69, 0x6e, 0x67, 0x5f, 0x64, 0x65, 0x66, 0x61, 0x75, 0x6c, 0x74, 0x00, 0x01, 0x00, 0x00, 0x00, 0x04, 0x00, 0x00, 0x00, 0x94, 0xff, 0xff, 0xff, 0x0a, 0x00, 0x00, 0x00, 0x04, 0x00, 0x00, 0x00, 0x07, 0x00, 0x00, 0x00, 0x64, 0x65, 0x6e, 0x73, 0x65, 0x5f, 0x35, 0x00, 0x01, 0x00, 0x00, 0x00, 0x04, 0x00, 0x00, 0x00, 0x12, 0xfb, 0xff, 0xff, 0x04, 0x00, 0x00, 0x00, 0x0d, 0x00, 0x00, 0x00, 0x64, 0x65, 0x6e, 0x73, 0x65, 0x5f, 0x33, 0x5f, 0x69, 0x6e, 0x70, 0x75, 0x74, 0x00, 0x00, 0x00, 0x02, 0x00, 0x00, 0x00, 0x34, 0x00, 0x00, 0x00, 0x04, 0x00, 0x00, 0x00, 0xdc, 0xff, 0xff, 0xff, 0x0d, 0x00, 0x00, 0x00, 0x04, 0x00, 0x00, 0x00, 0x13, 0x00, 0x00, 0x00, 0x43, 0x4f, 0x4e, 0x56, 0x45, 0x52, 0x53, 0x49, 0x4f, 0x4e, 0x5f, 0x4d, 0x45, 0x54, 0x41, 0x44, 0x41, 0x54, 0x41, 0x00, 0x08, 0x00, 0x0c, 0x00, 0x08, 0x00, 0x04, 0x00, 0x08, 0x00, 0x00, 0x00, 0x0c, 0x00, 0x00, 0x00, 0x04, 0x00, 0x00, 0x00, 0x13, 0x00, 0x00, 0x00, 0x6d, 0x69, 0x6e, 0x5f, 0x72, 0x75, 0x6e, 0x74, 0x69, 0x6d, 0x65, 0x5f, 0x76, 0x65, 0x72, 0x73, 0x69, 0x6f, 0x6e, 0x00, 0x0e, 0x00, 0x00, 0x00, 0xac, 0x04, 0x00, 0x00, 0xa4, 0x04, 0x00, 0x00, 0x70, 0x04, 0x00, 0x00, 0x18, 0x04, 0x00, 0x00, 0xfc, 0x03, 0x00, 0x00, 0xc8, 0x03, 0x00, 0x00, 0xf8, 0x02, 0x00, 0x00, 0xa8, 0x00, 0x00, 0x00, 0xa0, 0x00, 0x00, 0x00, 0x98, 0x00, 0x00, 0x00, 0x90, 0x00, 0x00, 0x00, 0x88, 0x00, 0x00, 0x00, 0x68, 0x00, 0x00, 0x00, 0x04, 0x00, 0x00, 0x00, 0xc6, 0xfb, 0xff, 0xff, 0x04, 0x00, 0x00, 0x00, 0x54, 0x00, 0x00, 0x00, 0x0c, 0x00, 0x00, 0x00, 0x08, 0x00, 0x0e, 0x00, 0x08, 0x00, 0x04, 0x00, 0x08, 0x00, 0x00, 0x00, 0x10, 0x00, 0x00, 0x00, 0x24, 0x00, 0x00, 0x00, 0x00, 0x00, 0x06, 0x00, 0x08, 0x00, 0x04, 0x00, 0x06, 0x00, 0x00, 0x00, 0x04, 0x00, 0x00, 0x00, 0x00, 0x00, 0x00, 0x00, 0x00, 0x00, 0x0a, 0x00, 0x10, 0x00, 0x0c, 0x00, 0x08, 0x00, 0x04, 0x00, 0x0a, 0x00, 0x00, 0x00, 0x02, 0x00, 0x00, 0x00, 0x02, 0x00, 0x00, 0x00, 0x04, 0x00, 0x00, 0x00, 0x06, 0x00, 0x00, 0x00, 0x32, 0x2e, 0x31, 0x31, 0x2e, 0x30, 0x00, 0x00, 0x26, 0xfc, 0xff, 0xff, 0x04, 0x00, 0x00, 0x00, 0x10, 0x00, 0x00, 0x00, 0x31, 0x2e, 0x31, 0x34, 0x2e, 0x30, 0x00, 0x00, 0x00, 0x00, 0x00, 0x00, 0x00, 0x00, 0x00, 0x00, 0x68, 0xf6, 0xff, 0xff, 0x6c, 0xf6, 0xff, 0xff, 0x70, 0xf6, 0xff, 0xff, 0x74, 0xf6, 0xff, 0xff, 0x52, 0xfc, 0xff, 0xff, 0x04, 0x00, 0x00, 0x00, 0x40, 0x02, 0x00, 0x00, 0x68, 0x6e, 0x37, 0x3d, 0x16, 0xd8, 0xeb, 0xbe, 0xb1, 0x48, 0x8e, 0xbe, 0x38, 0x8a, 0x3b, 0x3e, 0xba, 0xb3, 0x56, 0x3d, 0xe3, 0x99, 0xeb, 0xbe, 0x16, 0xbf, 0x90, 0x3e, 0x40, 0xec, 0xc8, 0xbe, 0x06, 0xf9, 0x40, 0xbe, 0xdf, 0x6f, 0xa4, 0xbb, 0xa0, 0xd5, 0x95, 0xbe, 0xee, 0x66, 0x95, 0xbe, 0xdb, 0x4a, 0x57, 0xbd, 0x76, 0x24, 0x29, 0x3e, 0xf8, 0x4d, 0x09, 0xbf, 0xed, 0xda, 0xc3, 0x3e, 0xd4, 0x7e, 0x3d, 0xbe, 0xc7, 0xa3, 0xa4, 0xbc, 0xb1, 0xac, 0xeb, 0x3c, 0x97, 0xed, 0xec, 0xbe, 0x8d, 0x5f, 0x43, 0xbf, 0x33, 0xd3, 0x69, 0x3e, 0x58, 0xa2, 0xed, 0xbe, 0x4e, 0x94, 0x23, 0x3e, 0xa1, 0xf7, 0x78, 0xbf, 0x20, 0x7b, 0x85, 0xbe, 0x03, 0xe0, 0x01, 0xbe, 0x1c, 0x9b, 0xd0, 0x3d, 0xa5, 0xe4, 0xa0, 0xbe, 0x4f, 0x38, 0xf1, 0x3e, 0xf0, 0x17, 0x5e, 0xbd, 0x71, 0xeb, 0xa7, 0x3e, 0x73, 0xd3, 0xe9, 0x3e, 0x42, 0xc9, 0x5d, 0xbe, 0x48, 0xd3, 0x88, 0xbe, 0x24, 0x77, 0x10, 0xbf, 0xab, 0x03, 0xb5, 0xbe, 0x4c, 0xf4, 0x4d, 0xbf, 0x7c, 0xe8, 0x99, 0x3e, 0xea, 0x10, 0x39, 0xbf, 0xb4, 0x15, 0x8c, 0xbe, 0x5d, 0x52, 0x5e, 0x3e, 0x45, 0x2f, 0x2c, 0x3e, 0xf2, 0xe2, 0x99, 0xbe, 0x10, 0x52, 0xcf, 0xbc, 0x08, 0xf1, 0x30, 0xbe, 0xdb, 0xd6, 0x91, 0xbe, 0xfa, 0x60, 0x90, 0xbe, 0x81, 0xab, 0xdf, 0x3e, 0xe8, 0x00, 0x59, 0x3e, 0x0e, 0xa0, 0x17, 0x3e, 0xd1, 0x65, 0x5c, 0x3e, 0x47, 0xdc, 0x8d, 0xbd, 0xf4, 0xad, 0xd2, 0xbe, 0xd3, 0x64, 0xcd, 0x3e, 0x7f, 0x0e, 0xd8, 0x3d, 0xad, 0x9e, 0x1f, 0xbf, 0xf1, 0x4e, 0xe0, 0x3e, 0x98, 0x59, 0xc0, 0x3d, 0x72, 0x12, 0x4f, 0x3e, 0x05, 0xee, 0x34, 0xbf, 0xf9, 0x0c, 0xb7, 0x3e, 0x80, 0xc4, 0xc0, 0x3e, 0xb8, 0x54, 0xe1, 0xbe, 0x2e, 0x46, 0x20, 0x3e, 0x49, 0x33, 0xb3, 0xbe, 0xe9, 0xfd, 0xb4, 0x3e, 0x70, 0x4e, 0x66, 0xbf, 0xef, 0xa8, 0x93, 0x3c, 0x4d, 0xac, 0x15, 0xbf, 0x39, 0x91, 0x3a, 0x3e, 0x01, 0xbd, 0x8c, 0xbe, 0x36, 0xf9, 0x59, 0xbe, 0xfe, 0x12, 0xef, 0xbd, 0x92, 0xef, 0x34, 0xbf, 0x6e, 0x71, 0x8e, 0xbe, 0xee, 0x7e, 0x1c, 0x3f, 0x8b, 0x60, 0x81, 0x3e, 0x3a, 0xe9, 0x49, 0xbe, 0x57, 0x1a, 0x91, 0x3e, 0x62, 0x70, 0x23, 0x3e, 0xea, 0x3e, 0xd8, 0xbe, 0x23, 0x73, 0xa9, 0xbe, 0x2a, 0x64, 0x8c, 0xbe, 0x84, 0xaf, 0xae, 0xbe, 0x7a, 0x75, 0x37, 0xbd, 0x98, 0xf4, 0xf7, 0x3d, 0x52, 0x67, 0x33, 0xbe, 0x39, 0x2e, 0x58, 0x3e, 0x2c, 0x25, 0xdd, 0x3e, 0x8e, 0xab, 0x96, 0xbc, 0x4c, 0xc1, 0x87, 0xbe, 0x3e, 0xf2, 0x9d, 0x3d, 0x25, 0x82, 0x85, 0x3e, 0xbd, 0x09, 0x0b, 0xbf, 0xbc, 0x8c, 0x99, 0x3d, 0xfc, 0x8a, 0x2f, 0xbe, 0x49, 0x09, 0xd8, 0x3e, 0x2c, 0xb8, 0xaa, 0xbe, 0x51, 0x8e, 0x09, 0xbd, 0x74, 0x31, 0x04, 0xbf, 0x81, 0x5a, 0x18, 0x3e, 0xbe, 0x28, 0xbf, 0x3e, 0x97, 0xcd, 0xf9, 0x3e, 0x51, 0x86, 0x32, 0xbf, 0x04, 0xb0, 0xa2, 0xbe, 0x51, 0xb8, 0x7c, 0x3e, 0x44, 0x4a, 0xa7, 0xbe, 0x6f, 0x59, 0x64, 0xbf, 0xc0, 0x53, 0x37, 0xbc, 0x38, 0x4b, 0xaa, 0x3e, 0x75, 0x7b, 0xb6, 0x3e, 0x30, 0x45, 0x91, 0xbd, 0x79, 0x4f, 0x84, 0xbe, 0x7f, 0xa8, 0x3f, 0xbe, 0xa6, 0xfc, 0xa6, 0xbe, 0x4f, 0xd3, 0x24, 0xbf, 0x91, 0x0b, 0x65, 0xbe, 0xb0, 0xe6, 0xd1, 0x3e, 0x39, 0xc6, 0xbf, 0x3d, 0xd4, 0x77, 0x1f, 0xbf, 0xa0, 0x0f, 0xb1, 0x3e, 0xed, 0xb5, 0xbe, 0xbe, 0xaf, 0x09, 0xab, 0x3e, 0x3d, 0x44, 0xa8, 0x3e, 0x97, 0xbb, 0xb1, 0x3e, 0x27, 0xdd, 0xab, 0xbe, 0x39, 0x39, 0xb8, 0x3e, 0xce, 0x13, 0x91, 0xbe, 0xca, 0xfe, 0x82, 0x3e, 0x24, 0xec, 0xe4, 0xbe, 0x94, 0x40, 0x5a, 0xbf, 0x58, 0xf9, 0x24, 0xbf, 0x08, 0x60, 0xb7, 0x3e, 0xaf, 0x51, 0xac, 0x3e, 0xe2, 0x62, 0xec, 0x3d, 0x88, 0xd0, 0xa2, 0xbe, 0xc6, 0x55, 0x4e, 0xbe, 0xaf, 0x82, 0x41, 0x3f, 0xa4, 0x50, 0x51, 0xbe, 0x2c, 0x5b, 0x5a, 0xbe, 0x65, 0xc0, 0xe4, 0x3e, 0xc2, 0x64, 0x84, 0x3e, 0x0a, 0xee, 0x3f, 0xbe, 0x9e, 0xfe, 0xff, 0xff, 0x04, 0x00, 0x00, 0x00, 0xc0, 0x00, 0x00, 0x00, 0x94, 0xd9, 0xde, 0xbe, 0x76, 0x5e, 0x9e, 0xbe, 0x20, 0x6a, 0x79, 0x3e, 0x96, 0x7e, 0x4b, 0x3f, 0x4e, 0x9c, 0xe5, 0x3e, 0x85, 0xe3, 0x24, 0x3e, 0xf8, 0x4d, 0x8c, 0x3e, 0x6f, 0xcd, 0xbf, 0x3d, 0x89, 0xdb, 0xa4, 0x3e, 0xe5, 0x1d, 0x61, 0x3f, 0xef, 0x17, 0xd2, 0x3b, 0xec, 0x42, 0xb4, 0x3e, 0xec, 0xf6, 0x47, 0x3f, 0x12, 0xf7, 0x98, 0xbe, 0x2b, 0x1f, 0x81, 0x3e, 0x43, 0x79, 0xa2, 0xbd, 0x6f, 0x53, 0xe1, 0x3e, 0x64, 0x71, 0xfe, 0x3d, 0x94, 0x25, 0xbb, 0xbc, 0xcb, 0xea, 0x08, 0xbf, 0x4b, 0x62, 0xa9, 0x3e, 0xf7, 0xc7, 0x55, 0x3e, 0x61, 0xb1, 0xe1, 0x3e, 0xb4, 0x00, 0x6f, 0x3e, 0xfd, 0x23, 0x09, 0x3f, 0x5b, 0xb0, 0xa5, 0xbe, 0x99, 0x91, 0x37, 0x3e, 0xae, 0xcd, 0x1b, 0x3e, 0xde, 0x75, 0xe5, 0xbe, 0x6f, 0x3e, 0x62, 0x3e, 0xed, 0xf4, 0x77, 0x3e, 0x66, 0x62, 0x22, 0x3f, 0xae, 0xee, 0x98, 0x3e, 0xac, 0xb7, 0x4e, 0xbe, 0x3d, 0xa6, 0xf7, 0xbe, 0x84, 0x13, 0x01, 0xbe, 0x21, 0xb2, 0x62, 0x3e, 0x2f, 0x89, 0x98, 0xbe, 0xbc, 0xd1, 0x5e, 0xbe, 0x9e, 0x91, 0x91, 0xbe, 0xb9, 0xf0, 0x8b, 0xbe, 0xc6, 0x1d, 0xd8, 0xbe, 0x20, 0xaf, 0x2c, 0x3f, 0xd8, 0x4d, 0x9f, 0x3e, 0x35, 0x80, 0x59, 0x3f, 0x18, 0x51, 0xb3, 0xbe, 0x84, 0x94, 0xb4, 0xbe, 0x7c, 0x5c, 0x01, 0xbf, 0x6a, 0xff, 0xff, 0xff, 0x04, 0x00, 0x00, 0x00, 0x24, 0x00, 0x00, 0x00, 0x5a, 0x4f, 0xad, 0xbe, 0xd8, 0x77, 0x36, 0xbf, 0xf1, 0x5c, 0x99, 0x3e, 0x37, 0x57, 0x93, 0x3e, 0xe1, 0xae, 0x44, 0xbf, 0xe8, 0x6d, 0xa4, 0x3f, 0xee, 0x26, 0xcc, 0xbe, 0xc0, 0x25, 0x25, 0xbf, 0x45, 0xd1, 0x14, 0x3f, 0x9a, 0xff, 0xff, 0xff, 0x04, 0x00, 0x00, 0x00, 0x0c, 0x00, 0x00, 0x00, 0x3e, 0xa8, 0x91, 0x3e, 0x6e, 0x2f, 0x29, 0x3e, 0x92, 0x2e, 0xa6, 0x3e, 0xb2, 0xff, 0xff, 0xff, 0x04, 0x00, 0x00, 0x00, 0x40, 0x00, 0x00, 0x00, 0x00, 0x00, 0x00, 0x00, 0x33, 0x8d, 0xca, 0x3c, 0x26, 0xa8, 0xc0, 0xbd, 0xe8, 0xf5, 0xb9, 0xbb, 0x33, 0xdf, 0xf3, 0x3d, 0xd4, 0xdf, 0x64, 0x3e, 0xe7, 0xed, 0x77, 0xbc, 0x16, 0x55, 0x3e, 0x3e, 0x7e, 0x34, 0x2e, 0x3e, 0xd8, 0x94, 0x26, 0xbd, 0xa1, 0x5f, 0x4c, 0x3d, 0x00, 0x00, 0x00, 0x00, 0xa2, 0x12, 0x8e, 0x3e, 0x00, 0x00, 0x00, 0x00, 0x02, 0xb5, 0xb1, 0x39, 0x00, 0x00, 0x00, 0x00, 0x00, 0x00, 0x06, 0x00, 0x08, 0x00, 0x04, 0x00, 0x06, 0x00, 0x00, 0x00, 0x04, 0x00, 0x00, 0x00, 0x24, 0x00, 0x00, 0x00, 0x4d, 0x6c, 0x86, 0xbe, 0x79, 0xec, 0xd3, 0x3c, 0xd2, 0x5c, 0x4c, 0xbe, 0xfa, 0x46, 0x6d, 0xbe, 0x4b, 0x8b, 0xc9, 0x3d, 0xb3, 0xc7, 0xee, 0x3d, 0xd3, 0x18, 0x00, 0x3e, 0x1c, 0x0d, 0x11, 0x3e, 0x1d, 0xf1, 0x3b, 0x3e, 0x5c, 0xfa, 0xff, 0xff, 0x60, 0xfa, 0xff, 0xff, 0x0f, 0x00, 0x00, 0x00, 0x4d, 0x4c, 0x49, 0x52, 0x20, 0x43, 0x6f, 0x6e, 0x76, 0x65, 0x72, 0x74, 0x65, 0x64, 0x2e, 0x00, 0x01, 0x00, 0x00, 0x00, 0x14, 0x00, 0x00, 0x00, 0x00, 0x00, 0x0e, 0x00, 0x18, 0x00, 0x14, 0x00, 0x10, 0x00, 0x0c, 0x00, 0x08, 0x00, 0x04, 0x00, 0x0e, 0x00, 0x00, 0x00, 0x14, 0x00, 0x00, 0x00, 0x1c, 0x00, 0x00, 0x00, 0x08, 0x01, 0x00, 0x00, 0x0c, 0x01, 0x00, 0x00, 0x10, 0x01, 0x00, 0x00, 0x04, 0x00, 0x00, 0x00, 0x6d, 0x61, 0x69, 0x6e, 0x00, 0x00, 0x00, 0x00, 0x04, 0x00, 0x00, 0x00, 0xb0, 0x00, 0x00, 0x00, 0x68, 0x00, 0x00, 0x00, 0x34, 0x00, 0x00, 0x00, 0x10, 0x00, 0x00, 0x00, 0x00, 0x00, 0x0a, 0x00, 0x10, 0x00, 0x0c, 0x00, 0x08, 0x00, 0x04, 0x00, 0x0a, 0x00, 0x00, 0x00, 0x0c, 0x00, 0x00, 0x00, 0x10, 0x00, 0x00, 0x00, 0x01, 0x00, 0x00, 0x00, 0x01, 0x00, 0x00, 0x00, 0x0a, 0x00, 0x00, 0x00, 0x01, 0x00, 0x00, 0x00, 0x09, 0x00, 0x00, 0x00, 0x9a, 0xff, 0xff, 0xff, 0x10, 0x00, 0x00, 0x00, 0x00, 0x00, 0x00, 0x08, 0x0c, 0x00, 0x00, 0x00, 0x10, 0x00, 0x00, 0x00, 0x08, 0xfb, 0xff, 0xff, 0x01, 0x00, 0x00, 0x00, 0x09, 0x00, 0x00, 0x00, 0x03, 0x00, 0x00, 0x00, 0x08, 0x00, 0x00, 0x00, 0x06, 0x00, 0x00, 0x00,
                                                         0x01, 0x00, 0x00, 0x00, 0xca, 0xff, 0xff, 0xff, 0x10, 0x00, 0x00, 0x00, 0x00, 0x00, 0x00, 0x08, 0x10, 0x00, 0x00, 0x00, 0x14, 0x00, 0x00, 0x00, 0xba, 0xff, 0xff, 0xff, 0x00, 0x00, 0x00, 0x01, 0x01, 0x00, 0x00, 0x00, 0x08, 0x00, 0x00, 0x00, 0x03, 0x00, 0x00, 0x00, 0x07, 0x00, 0x00, 0x00, 0x05, 0x00, 0x00, 0x00, 0x02, 0x00, 0x00, 0x00, 0x00, 0x00, 0x0e, 0x00, 0x16, 0x00, 0x00, 0x00, 0x10, 0x00, 0x0c, 0x00, 0x0b, 0x00, 0x04, 0x00, 0x0e, 0x00, 0x00, 0x00, 0x18, 0x00, 0x00, 0x00, 0x00, 0x00, 0x00, 0x08, 0x18, 0x00, 0x00, 0x00, 0x1c, 0x00, 0x00, 0x00, 0x00, 0x00, 0x06, 0x00, 0x08, 0x00, 0x07, 0x00, 0x06, 0x00, 0x00, 0x00, 0x00, 0x00, 0x00, 0x01, 0x01, 0x00, 0x00, 0x00, 0x07, 0x00, 0x00, 0x00, 0x03, 0x00, 0x00, 0x00, 0x00, 0x00, 0x00, 0x00, 0x04, 0x00, 0x00, 0x00, 0x03, 0x00, 0x00, 0x00, 0x01, 0x00, 0x00, 0x00, 0x0a, 0x00, 0x00, 0x00, 0x01, 0x00, 0x00, 0x00, 0x00, 0x00, 0x00, 0x00, 0x0b, 0x00, 0x00, 0x00, 0x20, 0x04, 0x00, 0x00, 0xb0, 0x03, 0x00, 0x00, 0x40, 0x03, 0x00, 0x00, 0xe8, 0x02, 0x00, 0x00, 0x9c, 0x02, 0x00, 0x00, 0x50, 0x02, 0x00, 0x00, 0x04, 0x02, 0x00, 0x00, 0x70, 0x01, 0x00, 0x00, 0xdc, 0x00, 0x00, 0x00, 0x60, 0x00, 0x00, 0x00, 0x04, 0x00, 0x00, 0x00, 0x22, 0xfc, 0xff, 0xff, 0x00, 0x00, 0x00, 0x01, 0x14, 0x00, 0x00, 0x00, 0x1c, 0x00, 0x00, 0x00, 0x1c, 0x00, 0x00, 0x00, 0x0b, 0x00, 0x00, 0x00, 0x34, 0x00, 0x00, 0x00, 0x02, 0x00, 0x00, 0x00, 0xff, 0xff, 0xff, 0xff, 0x09, 0x00, 0x00, 0x00, 0x0c, 0xfc, 0xff, 0xff, 0x19, 0x00, 0x00, 0x00, 0x53, 0x74, 0x61, 0x74, 0x65, 0x66, 0x75, 0x6c, 0x50, 0x61, 0x72, 0x74, 0x69, 0x74, 0x69, 0x6f, 0x6e, 0x65, 0x64, 0x43, 0x61, 0x6c, 0x6c, 0x3a, 0x30, 0x00, 0x00, 0x00, 0x02, 0x00, 0x00, 0x00, 0x01, 0x00, 0x00, 0x00, 0x09, 0x00, 0x00, 0x00, 0x7a, 0xfc, 0xff, 0xff, 0x00, 0x00, 0x00, 0x01, 0x14, 0x00, 0x00, 0x00, 0x1c, 0x00, 0x00, 0x00, 0x1c, 0x00, 0x00, 0x00, 0x0a, 0x00, 0x00, 0x00, 0x54, 0x00, 0x00, 0x00, 0x02, 0x00, 0x00, 0x00, 0xff, 0xff, 0xff, 0xff, 0x09, 0x00, 0x00, 0x00, 0x64, 0xfc, 0xff, 0xff, 0x38, 0x00, 0x00, 0x00, 0x73, 0x65, 0x71, 0x75, 0x65, 0x6e, 0x74, 0x69, 0x61, 0x6c, 0x5f, 0x31, 0x2f, 0x64, 0x65, 0x6e, 0x73, 0x65, 0x5f, 0x35, 0x2f, 0x4d, 0x61, 0x74, 0x4d, 0x75, 0x6c, 0x3b, 0x73, 0x65, 0x71, 0x75, 0x65, 0x6e, 0x74, 0x69, 0x61, 0x6c, 0x5f, 0x31, 0x2f, 0x64, 0x65, 0x6e, 0x73, 0x65, 0x5f, 0x35, 0x2f, 0x42, 0x69, 0x61, 0x73, 0x41, 0x64, 0x64, 0x00, 0x00, 0x00, 0x00, 0x02, 0x00, 0x00, 0x00, 0x01, 0x00, 0x00, 0x00, 0x09, 0x00, 0x00, 0x00, 0xf2, 0xfc, 0xff, 0xff, 0x00, 0x00, 0x00, 0x01, 0x14, 0x00, 0x00, 0x00, 0x1c, 0x00, 0x00, 0x00, 0x1c, 0x00, 0x00, 0x00, 0x09, 0x00, 0x00, 0x00, 0x6c, 0x00, 0x00, 0x00, 0x02, 0x00, 0x00, 0x00, 0xff, 0xff, 0xff, 0xff, 0x10, 0x00, 0x00, 0x00, 0xdc, 0xfc, 0xff, 0xff, 0x52, 0x00, 0x00, 0x00, 0x73, 0x65, 0x71, 0x75, 0x65, 0x6e, 0x74, 0x69, 0x61, 0x6c, 0x5f, 0x31, 0x2f, 0x64, 0x65, 0x6e, 0x73, 0x65, 0x5f, 0x34, 0x2f, 0x4d, 0x61, 0x74, 0x4d, 0x75, 0x6c, 0x3b, 0x73, 0x65, 0x71, 0x75, 0x65, 0x6e, 0x74, 0x69, 0x61, 0x6c, 0x5f, 0x31, 0x2f, 0x64, 0x65, 0x6e, 0x73, 0x65, 0x5f, 0x34, 0x2f, 0x52, 0x65, 0x6c, 0x75, 0x3b, 0x73, 0x65, 0x71, 0x75, 0x65, 0x6e, 0x74, 0x69, 0x61, 0x6c, 0x5f, 0x31, 0x2f, 0x64, 0x65, 0x6e, 0x73, 0x65, 0x5f, 0x34, 0x2f, 0x42, 0x69, 0x61, 0x73, 0x41, 0x64, 0x64, 0x00, 0x00, 0x02, 0x00, 0x00, 0x00, 0x01, 0x00, 0x00, 0x00, 0x10, 0x00, 0x00, 0x00, 0x82, 0xfd, 0xff, 0xff, 0x00, 0x00, 0x00, 0x01, 0x14, 0x00, 0x00, 0x00, 0x1c, 0x00, 0x00, 0x00, 0x1c, 0x00, 0x00, 0x00, 0x08, 0x00, 0x00, 0x00, 0x6c, 0x00, 0x00, 0x00, 0x02, 0x00, 0x00, 0x00, 0xff, 0xff, 0xff, 0xff, 0x03, 0x00, 0x00, 0x00, 0x6c, 0xfd, 0xff, 0xff, 0x52, 0x00, 0x00, 0x00, 0x73, 0x65, 0x71, 0x75, 0x65, 0x6e, 0x74, 0x69, 0x61, 0x6c, 0x5f, 0x31, 0x2f, 0x64, 0x65, 0x6e, 0x73, 0x65, 0x5f, 0x33, 0x2f, 0x4d, 0x61, 0x74, 0x4d, 0x75, 0x6c, 0x3b, 0x73, 0x65, 0x71, 0x75, 0x65, 0x6e, 0x74, 0x69, 0x61, 0x6c, 0x5f, 0x31, 0x2f, 0x64, 0x65, 0x6e, 0x73, 0x65, 0x5f, 0x33, 0x2f, 0x52, 0x65, 0x6c, 0x75, 0x3b, 0x73, 0x65, 0x71, 0x75, 0x65, 0x6e, 0x74, 0x69, 0x61, 0x6c, 0x5f, 0x31, 0x2f, 0x64, 0x65, 0x6e, 0x73, 0x65, 0x5f, 0x33, 0x2f, 0x42, 0x69, 0x61, 0x73, 0x41, 0x64, 0x64, 0x00, 0x00, 0x02, 0x00, 0x00, 0x00, 0x01, 0x00, 0x00, 0x00, 0x03, 0x00, 0x00, 0x00, 0x7e, 0xfe, 0xff, 0xff, 0x00, 0x00, 0x00, 0x01, 0x10, 0x00, 0x00, 0x00, 0x10, 0x00, 0x00, 0x00, 0x07, 0x00, 0x00, 0x00, 0x28, 0x00, 0x00, 0x00, 0xec, 0xfd, 0xff, 0xff, 0x1b, 0x00, 0x00, 0x00, 0x73, 0x65, 0x71, 0x75, 0x65, 0x6e, 0x74, 0x69, 0x61, 0x6c, 0x5f, 0x31, 0x2f, 0x64, 0x65, 0x6e, 0x73, 0x65, 0x5f, 0x35, 0x2f, 0x4d, 0x61, 0x74, 0x4d, 0x75, 0x6c, 0x00, 0x02, 0x00, 0x00, 0x00, 0x09, 0x00, 0x00, 0x00, 0x10, 0x00, 0x00, 0x00, 0xc6, 0xfe, 0xff, 0xff, 0x00, 0x00, 0x00, 0x01, 0x10, 0x00, 0x00, 0x00, 0x10, 0x00, 0x00, 0x00, 0x06, 0x00, 0x00, 0x00, 0x28, 0x00, 0x00, 0x00, 0x34, 0xfe, 0xff, 0xff, 0x1b, 0x00, 0x00, 0x00, 0x73, 0x65, 0x71, 0x75, 0x65, 0x6e, 0x74, 0x69, 0x61, 0x6c, 0x5f, 0x31, 0x2f, 0x64, 0x65, 0x6e, 0x73, 0x65, 0x5f, 0x34, 0x2f, 0x4d, 0x61, 0x74, 0x4d, 0x75, 0x6c, 0x00, 0x02, 0x00, 0x00, 0x00, 0x10, 0x00, 0x00, 0x00, 0x03, 0x00, 0x00, 0x00, 0x0e, 0xff, 0xff, 0xff, 0x00, 0x00, 0x00, 0x01, 0x10, 0x00, 0x00, 0x00, 0x10, 0x00, 0x00, 0x00, 0x05, 0x00, 0x00, 0x00, 0x28, 0x00, 0x00, 0x00, 0x7c, 0xfe, 0xff, 0xff, 0x1b, 0x00, 0x00, 0x00, 0x73, 0x65, 0x71, 0x75, 0x65, 0x6e, 0x74, 0x69, 0x61, 0x6c, 0x5f, 0x31, 0x2f, 0x64, 0x65, 0x6e, 0x73, 0x65, 0x5f, 0x33, 0x2f, 0x4d, 0x61, 0x74, 0x4d, 0x75, 0x6c, 0x00, 0x02, 0x00, 0x00, 0x00, 0x03, 0x00, 0x00, 0x00, 0x03, 0x00, 0x00, 0x00, 0x56, 0xff, 0xff, 0xff, 0x00, 0x00, 0x00, 0x01, 0x10, 0x00, 0x00, 0x00, 0x10, 0x00, 0x00, 0x00, 0x04, 0x00, 0x00, 0x00, 0x38, 0x00, 0x00, 0x00, 0xc4, 0xfe, 0xff, 0xff, 0x2b, 0x00, 0x00, 0x00, 0x73, 0x65, 0x71, 0x75, 0x65, 0x6e, 0x74, 0x69, 0x61, 0x6c, 0x5f, 0x31, 0x2f, 0x64, 0x65, 0x6e, 0x73, 0x65, 0x5f, 0x33, 0x2f, 0x42, 0x69, 0x61, 0x73, 0x41, 0x64, 0x64, 0x2f, 0x52, 0x65, 0x61, 0x64, 0x56, 0x61, 0x72, 0x69, 0x61, 0x62, 0x6c, 0x65, 0x4f, 0x70, 0x00, 0x01, 0x00, 0x00, 0x00, 0x03, 0x00, 0x00, 0x00, 0xaa, 0xff, 0xff, 0xff, 0x00, 0x00, 0x00, 0x01, 0x10, 0x00, 0x00, 0x00, 0x10, 0x00, 0x00, 0x00, 0x03, 0x00, 0x00, 0x00, 0x38, 0x00, 0x00, 0x00, 0x18, 0xff, 0xff, 0xff, 0x2b, 0x00, 0x00, 0x00, 0x73, 0x65, 0x71, 0x75, 0x65, 0x6e, 0x74, 0x69, 0x61, 0x6c, 0x5f, 0x31, 0x2f, 0x64, 0x65, 0x6e, 0x73, 0x65, 0x5f, 0x34, 0x2f, 0x42, 0x69, 0x61, 0x73, 0x41, 0x64, 0x64, 0x2f, 0x52, 0x65, 0x61, 0x64, 0x56, 0x61, 0x72, 0x69, 0x61, 0x62, 0x6c, 0x65, 0x4f, 0x70, 0x00, 0x01, 0x00, 0x00, 0x00, 0x10, 0x00, 0x00, 0x00, 0x00, 0x00, 0x16, 0x00, 0x18, 0x00, 0x14, 0x00, 0x00, 0x00, 0x10, 0x00, 0x0c, 0x00, 0x08, 0x00, 0x00, 0x00, 0x00, 0x00, 0x00, 0x00, 0x07, 0x00, 0x16, 0x00, 0x00, 0x00, 0x00, 0x00, 0x00, 0x01, 0x10, 0x00, 0x00, 0x00, 0x10, 0x00, 0x00, 0x00, 0x02, 0x00, 0x00, 0x00, 0x38, 0x00, 0x00, 0x00, 0x84, 0xff, 0xff, 0xff, 0x2b, 0x00, 0x00, 0x00, 0x73, 0x65, 0x71, 0x75, 0x65, 0x6e, 0x74, 0x69, 0x61, 0x6c, 0x5f, 0x31, 0x2f, 0x64, 0x65, 0x6e, 0x73, 0x65, 0x5f, 0x35, 0x2f, 0x42, 0x69, 0x61, 0x73, 0x41, 0x64, 0x64, 0x2f, 0x52, 0x65, 0x61, 0x64, 0x56, 0x61, 0x72, 0x69, 0x61, 0x62, 0x6c, 0x65, 0x4f, 0x70, 0x00, 0x01, 0x00, 0x00, 0x00, 0x09, 0x00, 0x00, 0x00, 0x00, 0x00, 0x16, 0x00, 0x1c, 0x00, 0x18, 0x00, 0x00, 0x00, 0x14, 0x00, 0x10, 0x00, 0x0c, 0x00, 0x00, 0x00, 0x00, 0x00, 0x08, 0x00, 0x07, 0x00, 0x16, 0x00, 0x00, 0x00, 0x00, 0x00, 0x00, 0x01, 0x14, 0x00, 0x00, 0x00, 0x20, 0x00, 0x00, 0x00, 0x20, 0x00, 0x00, 0x00, 0x01, 0x00, 0x00, 0x00, 0x3c, 0x00, 0x00, 0x00, 0x02, 0x00, 0x00, 0x00, 0xff, 0xff, 0xff, 0xff, 0x03, 0x00, 0x00, 0x00, 0x04, 0x00, 0x04, 0x00, 0x04, 0x00, 0x00, 0x00, 0x1f, 0x00, 0x00, 0x00, 0x73, 0x65, 0x72, 0x76, 0x69, 0x6e, 0x67, 0x5f, 0x64, 0x65, 0x66, 0x61, 0x75, 0x6c, 0x74, 0x5f, 0x64, 0x65, 0x6e, 0x73, 0x65, 0x5f, 0x33, 0x5f, 0x69, 0x6e, 0x70, 0x75, 0x74, 0x3a, 0x30, 0x00, 0x02, 0x00, 0x00, 0x00, 0x01, 0x00, 0x00, 0x00, 0x03, 0x00, 0x00, 0x00, 0x02, 0x00, 0x00, 0x00, 0x20, 0x00, 0x00, 0x00, 0x04, 0x00, 0x00, 0x00, 0xf4, 0xff, 0xff, 0xff, 0x0e, 0x00, 0x00, 0x00, 0x00, 0x00, 0x00, 0x0e, 0x0c, 0x00, 0x0c, 0x00, 0x0b, 0x00, 0x00, 0x00, 0x00, 0x00, 0x04, 0x00, 0x0c, 0x00, 0x00, 0x00, 0x09, 0x00, 0x00, 0x00, 0x00, 0x00, 0x00, 0x09 };

/**
 * Wrapper around the EloquentTinyML library
 */
template<uint32_t arenaSize>
class TensorFlowPorter {
    public:
        Eloquent::TinyML::TensorFlow::AllOpsTensorFlow<3, 9, arenaSize> tf;

        /**
         * Init model
         */
        bool begin() {
            return tf.begin(modelData);
        }

        /**
         * Proxy
         */
        uint8_t predict(uint8_t *input, uint8_t *output = NULL) {
            return tf.predict(input, output);
        }

        /**
         * Proxy
         */
        int8_t predict(int8_t *input, int8_t *output = NULL) {
            return tf.predict(input, output);
        }

        /**
         * Proxy
         */
        float predict(float *input, float *output = NULL) {
            return tf.predict(input, output);
        }

        /**
         * Proxy
         */
        template<typename T>
        uint8_t predictClass(T *input) {
            return tf.predictClass(input);
        }

        /**
         * Proxy
         */
        float getScoreAt(uint8_t index) {
            return tf.getScoreAt(index);
        }

        /**
         * Proxy
         */
        String getErrorMessage() {
            return tf.getErrorMessage();
        }
};



TensorFlowPorter<ARENA_SIZE> colorNN;


#endif